unsigned char model[] = {
  // model header
  0x04, 0x00, 0x00, 0x00,
  0x04, 0x00, 0x00, 0x00,
  0x08, 0x00, 0x00, 0x00,

  // layer 1 a, gemm 
  0x03, 0x00, 0x00, 0x00,
  0x04, 0x00, 0x00, 0x00,
  0x01, 0x00, 0x00, 0x00,
  0x01, 0x00, 0x00, 0x00,
  0x00, 0x00, 0x80, 0x3f, 0x00, 0x00, 0x80, 0x3f, 
  0x00, 0x00, 0x80, 0x3f, 0x00, 0x00, 0x80, 0x3f, 

  // layer 1 b, vadd 
  0x01, 0x00, 0x00, 0x00,
  0x04, 0x00, 0x00, 0x00,
  0x00, 0x00, 0x80, 0x3f, 0x00, 0x00, 0x80, 0x3f, 
  0x00, 0x00, 0x80, 0x3f, 0x00, 0x00, 0x80, 0x3f,

  // layer 1 c, relu
  0x04, 0x00, 0x00, 0x00,
  0x04, 0x00, 0x00, 0x00,

  // layer 2 a, gemm
  0x03, 0x00, 0x00, 0x00,
  0x04, 0x00, 0x00, 0x00,
  0x04, 0x00, 0x00, 0x00,
  0x01, 0x00, 0x00, 0x00,
  0x00, 0x00, 0x80, 0x3f, 0x00, 0x00, 0x80, 0x3f, 
  0x00, 0x00, 0x80, 0x3f, 0x00, 0x00, 0x80, 0x3f,
  0x00, 0x00, 0x80, 0x3f, 0x00, 0x00, 0x80, 0x3f, 
  0x00, 0x00, 0x80, 0x3f, 0x00, 0x00, 0x80, 0x3f,
  0x00, 0x00, 0x80, 0x3f, 0x00, 0x00, 0x80, 0x3f, 
  0x00, 0x00, 0x80, 0x3f, 0x00, 0x00, 0x80, 0x3f,
  0x00, 0x00, 0x80, 0x3f, 0x00, 0x00, 0x80, 0x3f, 
  0x00, 0x00, 0x80, 0x3f, 0x00, 0x00, 0x80, 0x3f, 

  // layer 2 b, vadd 
  0x01, 0x00, 0x00, 0x00,
  0x04, 0x00, 0x00, 0x00,
  0x00, 0x00, 0x80, 0x3f, 0x00, 0x00, 0x80, 0x3f, 
  0x00, 0x00, 0x80, 0x3f, 0x00, 0x00, 0x80, 0x3f,

  // layer 2 c, relu
  0x04, 0x00, 0x00, 0x00,
  0x04, 0x00, 0x00, 0x00,

  // layer 3 a, gemm 
  0x03, 0x00, 0x00, 0x00,
  0x01, 0x00, 0x00, 0x00,
  0x04, 0x00, 0x00, 0x00,
  0x01, 0x00, 0x00, 0x00,
  0x00, 0x00, 0x80, 0x3f, 0x00, 0x00, 0x80, 0x3f, 
  0x00, 0x00, 0x80, 0x3f, 0x00, 0x00, 0x80, 0x3f,

  // layer 3 b, vadd 
  0x01, 0x00, 0x00, 0x00,
  0x01, 0x00, 0x00, 0x00,
  0x00, 0x00, 0x80, 0x3f,
};
